BE12E5D0
3EC6F843
BE6698EE
BCD13B48
BD99C0C0
BD27A7DF
BE040C31
BE100D32
BC977651
3E95F25B
3EACAC06
3A8E3D5D
3F0D3D19
BC8FBA75
BD16CABD
BD8D2AED
BC94B6CF
3F449F29
BE805FED
BBEDDC5E
3EDA2E81
3B224A39
BD0E10C1
BE500687
BE93A06B
BDDA1048
3F513E2E
3E730A5E
BE82BE7A
BDF0B3C5
BCFD7EE6
BE34F57C
3F2233E1
BC23774D
3E7ACEC1
BD209CFB
3EB43A52
3E445393
3F09F1E5
3EF73191
3E644225
BC88C25B
3C248F58
BB8EAEDE
BDECE908
3DFEE51B
3DBC6790
BC719E76
3DB8415B
BE1D1A18
BD984735
BE2CB402
39E8C97A
BC766EF5
BE8067B6
3DDB77A6
BE9F1E7F
BC419020
BDAC0631
BD880E7A
3D001F1E
BDB61C58
3DB3193C
3E671E07
3EC4BA01
3E84E0B2
3EFDF32F
3F01736F
BC3E01CD
BDDA4E25
3E7670BA
BE3FB2FE
3EA83CD3
BD90DC57
3EA7AF88
3F47E2F8
BDA2034B
BE314B36
3E6102FC
3E99036D
BDCC64B8
BDA0A6BF
3EF9B02F
BD23EE8F
3C0C965F
BE48924B
3E8F59FA
BE3D9704
BD45101C
3B392035
BE1305C0
3EBEFABC
3D858E2B
3E9C0B09
3EA954C9
3E831904
3ED4ADFE
BE237ACC
BC65C71B
BE2486D1
BD4C82B0
BD1338D1
3ED02709
3DBF3439
BD69FFF4
3E8DFE9D
3E6EE039
3D56801F
3BB3B3D1
BE6115AE
BD33DEBF
BE27E2E1
3E990917
3E63D56D
3C8B1CF8
3E81FF0F
3E87A122
BDD57672
BCAFFFA4
BE806172
BE470341
BDDFC1C5
BE453807
BE2075FC
3F2CB020
BE439E4A
BCF5B545
BCC41F39
BE1D25FA
BB9D8B60
BE3A5AC6
3CB55124
3E3E732C
BEA08E04
BC9885AD
BEAE02E8
BC828F8C
3D446CC1
3EF66D13
3E552332
BE3D05C8
BDA21823
BD12A51B
BDDD9B3A
BD87C28F
BE21F234
3F046525
BC9ACF04
BE3FDC73
3E929FE7
BEB734F9
BD04496B
BDCE45B1
BEAB663D
3F0D24BA
BE27FE8A
BD91C978
BD08D19C
BDD5D1F1
3CFB7957
BE31A783
3E9CE662
3EBDB0F3
3E9EB801
BE470178
BCC2D818
3EDBB464
BD8AD3E4
3E93B339
3E88B1A3
3D9C7D38
BE797273
3E0C6B0A
BDB81024
3E592A0E
BDA23B07
BE127AE8
BE5A2738
3F166AC3
BE2CAF26
BA63148F
BDA280B3
BE6FF771
BCAA0CDE
3EA69FF8
3F500CA9
3DDE9BCC
BE45B8A4
3E850072
3EA8C9CF
BDE6C434
3EDBD1AD
BE0A0A35
BE4C715C
3E29D0E9
BCE595D2
BE8CCD04
BE10CF7B
BCF8F041
BE1607BE
BD444E2D
BE13F8FE
BE543FBD
3EBA44AB
3E26BDD6
BE1FD300
BCC75C3E
BD2725CD
3EFD0F58
3DDE2EE4
BAB2D735
BD3D5C78
3EAA8B27
BE1FDDBF
BD78180F
BE28BB3D
BD85E896
3F144C9F
3D3884B0
3F397B18
BCBA30BA
BE4A2B45
BC678929
3EE898E4
BD188413
3EFC1BEF
BEBFC0EA
BE220C1E
3E63FC36
BE3994EF
BE0A126B
BE10903F
BD10E5AA
3E84F0C3
3F096AFF
3EEB129D
BE283898
3CFBF287
3E20E21E
BE23A05E
BD9831CC
3E0EB6D5
3F42329F
3C691043
3C40B357
3EA56CEF
BE20A167
3EDF8DDB
3E840173
BB0AF769
BCCB7AB9
3D5FAA9E
BCBB4660
BC5C25B8
3EAE5203
BE913D46
3EC5BFEA
BC660D83
BE83B92B
BE37B9E5
3E8752CC
BD968EE5
BE559C16
BE2705A8
BDD54B2F
3B847373
3EBFDD5A
BE805FD2
BE34631D
3F025E9F
BE396113
BD0DF107
3F10D64C
3E640936
BC5789D2
BC75156A
3E5606B2
BE136AD1
3ED4C137
3CA1D4A5
3EA3A165
BE02B7CC
BCC4F6EA
BC68C09C
BEB8F5EA
BC0EFC64
BD41ABDF
BE47CB4A
BD8CA4BB
3E6466F9
BE614950
BCAFE897
3EB9712E
BE2E5C8D
3C587DB9
BDA9A399
BE556819
3E7906BF
BD1AADB0
BBC27B9C
3E5E9896
3E874B49
3C116C8D
3ECA1625
BCD1654D
BE1313CF
BEACB17C
BDA18C5B
BD60ED38
3D0D7C4A
3E6CE62C
BC9899A0
3E906281
3D346854
BDD6D6FF
3EB541E5
BDA2EA35
BD0293F4
3D786B67
BCCC314E
3EB8EFAF
3E80D4EF
BE1350C7
BE391C1E
BC588F42
BDBF20A6
BD2DD4AF
BDE080EE
BD42537D
BDE93865
3E88D247
3E885E5A
3E88AE87
BC70B031
BE3FAE75
3F1C510E
BE2CABE1
BDDB5475
BC692C52
BE2FB1FC
BCF1853D
3EDBA0D4
3E4531AA
3EAC4DF1
3EA7822A
3F0DD780
BD51FC71
BC90DEF9
3E6F5307
BE0081DC
BE482B5E
BDA94340
BDF57837
BCBD3817
BD643861
BD1D290B
BCB46750
BC054177
BD4374FA
3D2EA924
BDA00E97
3EA99C45
BE1140BF
3EB047E0
BCC4532E
BDFF1A3B
BE379A23
3EDAB10B
3F0FC84F
BD12BE24
3EA46310
BDCD9240
BDE3C6E8
BCB1AEE7
BE5834D0
3E91B0BD
3E904A17
BCEA904A
3BECD661
3EE4D57B
BE4B7324
3F159CB7
BE536CCF
BE41F859
3E936A32
3E79F650
3EA5CB42
BE66EB26
BE43CF70
BE24A951
3EDDBBAB
3E239CC7
00000000
00000000
00000000
00000000
00000000
00000000
00000000
00000000
00000000
00000000
00000000
00000000
00000000
00000000
00000000
00000000
00000000
00000000
00000000
00000000
00000000
00000000
00000000
00000000
00000000
00000000
00000000
00000000
00000000
00000000
00000000
00000000
00000000
00000000
00000000
00000000
00000000
00000000
00000000
00000000
00000000
00000000
00000000
00000000
00000000
00000000
00000000
00000000
00000000
00000000
00000000
00000000
00000000
00000000
00000000
00000000
00000000
00000000
00000000
00000000
00000000
00000000
00000000
00000000
00000000
00000000
00000000
00000000
00000000
00000000
00000000
00000000
00000000
00000000
00000000
00000000
00000000
00000000
00000000
00000000
00000000
00000000
00000000
00000000
00000000
00000000
00000000
00000000
00000000
00000000
00000000
00000000
00000000
00000000
00000000
00000000
00000000
00000000
00000000
00000000
00000000
00000000
00000000
00000000
00000000
00000000
00000000
00000000
00000000
00000000
00000000
00000000
00000000
00000000
00000000
00000000
00000000
00000000
00000000
00000000
00000000
00000000
00000000
00000000
00000000
00000000
00000000
00000000
00000000
00000000
00000000
00000000
00000000
00000000
00000000
00000000
00000000
00000000
00000000
00000000
00000000
00000000
00000000
00000000
00000000
00000000
00000000
00000000
00000000
00000000
00000000
00000000
00000000
00000000
00000000
00000000
00000000
00000000
00000000
00000000
00000000
00000000
00000000
00000000
00000000
00000000
00000000
00000000
00000000
00000000
00000000
00000000
00000000
00000000
00000000
00000000
00000000
00000000
00000000
00000000
00000000
00000000
00000000
00000000
00000000
00000000
00000000
00000000
00000000
00000000
00000000
00000000
00000000
00000000
00000000
00000000
00000000
00000000
00000000
00000000
00000000
00000000
00000000
00000000
00000000
00000000
00000000
00000000
00000000
00000000
00000000
00000000
00000000
00000000
00000000
00000000
00000000
00000000
00000000
00000000
00000000
00000000
00000000
00000000
00000000
00000000
00000000
00000000
00000000
00000000
00000000
00000000
00000000
00000000
00000000
00000000
00000000
00000000
00000000
00000000
00000000
00000000
00000000
00000000
00000000
00000000
00000000
00000000
00000000
00000000
00000000
00000000
00000000
00000000
00000000
00000000
00000000
00000000
00000000
00000000
00000000
00000000
00000000
00000000
00000000
00000000
00000000
00000000
00000000
00000000
00000000
00000000
00000000
00000000
00000000
00000000
00000000
00000000
00000000
00000000
00000000
00000000
00000000
00000000
00000000
00000000
00000000
00000000
00000000
00000000
00000000
00000000
00000000
00000000
00000000
00000000
00000000
00000000
00000000
00000000
00000000
00000000
00000000
00000000
00000000
00000000
00000000
00000000
00000000
00000000
00000000
00000000
00000000
00000000
00000000
00000000
00000000
00000000
00000000
00000000
00000000
00000000
00000000
00000000
00000000
00000000
00000000
00000000
00000000
00000000
00000000
00000000
00000000
00000000
00000000
00000000
00000000
00000000
00000000
00000000
00000000
00000000
00000000
00000000
00000000
00000000
00000000
00000000
00000000
00000000
00000000
00000000
00000000
00000000
00000000
00000000
00000000
00000000
00000000
00000000
00000000
00000000
00000000
00000000
00000000
00000000
00000000
00000000
00000000
00000000
00000000
00000000
00000000
00000000
00000000
00000000
00000000
00000000
00000000
00000000
00000000
00000000
00000000
00000000
00000000
00000000
00000000
00000000
00000000
00000000
00000000
00000000

